/**
  ******************************************************************************
  * @file    network_data_params.c
  * @author  AST Embedded Analytics Research Platform
  * @date    Fri Jan 13 19:03:26 2023
  * @brief   AI Tool Automatic Code Generator for Embedded NN computing
  ******************************************************************************
  * Copyright (c) 2023 STMicroelectronics.
  * All rights reserved.
  *
  * This software is licensed under terms that can be found in the LICENSE file
  * in the root directory of this software component.
  * If no LICENSE file comes with this software, it is provided AS-IS.
  ******************************************************************************
  */

#include "network_data_params.h"


/**  Activations Section  ****************************************************/
ai_handle g_network_activations_table[1 + 2] = {
  AI_HANDLE_PTR(AI_MAGIC_MARKER),
  AI_HANDLE_PTR(NULL),
  AI_HANDLE_PTR(AI_MAGIC_MARKER),
};




/**  Weights Section  ********************************************************/
AI_ALIGNED(32)
const ai_u64 s_network_weights_array_u64[2339] = {
  0xbd0baf83bde96b39U, 0xbfe154893f29448eU, 0xbcb02c13407b45bfU, 0xc02d6a68c0c83543U,
  0x3f001ab7bead6354U, 0xbd86c284bb06f6c9U, 0xc079231ac01c7294U, 0x40f6826dbd096abaU,
  0x40c17f5e4023200fU, 0xc0c6d473bf95df8eU, 0xbc836e4a3c856834U, 0xbd20059f3f92b7afU,
  0xbcc86aa43f62f9baU, 0xc03a58b440ded6e2U, 0xbfe161cdc0e08613U, 0xbc9e50c2411084b9U,
  0xbd266a9741058bf6U, 0xc039d412beae4c26U, 0x3f5bb60bbce82404U, 0x3df86c3cbf69887bU,
  0xbd08cd5dbca8b43aU, 0x40c0d084c03442b0U, 0x407d2aafbc9f17e9U, 0xbdeb49b3bfb1cf44U,
  0xc05a77b2bc47d4edU, 0xbd70843240a1740eU, 0x4044e335c03673ddU, 0xbb977ff0410b5477U,
  0xbe1cf015bcef2695U, 0xbd2414fe40c53a7fU, 0xbc48bfc2bcf89e82U, 0xbd98be74bcbed10aU,
  0x3d40f7d1bddfb435U, 0xbd3c70553dd702afU, 0xbe5ebf2abd8c9a68U, 0x3e011bb9bd3b2370U,
  0x3d96a5cebe6e00efU, 0xbe8002d2bdc1c385U, 0xbd939a213ca8c3c1U, 0xbc873f48b9545aa2U,
  0x3f0652b93dd3cf25U, 0xbe81b739be198b43U, 0x3dc50eb13da1d05aU, 0xbe0b8318bd9784baU,
  0xbe728c4abe27dd34U, 0xbe0002133ca6c252U, 0x3e0f0df93e4f8462U, 0xbd03aa7a3ed49ea1U,
  0x3d990dcf3e2db104U, 0xbdfb32b33d0b3b49U, 0x3e3dd970be83ff1eU, 0xbea5c0a83ec07bf1U,
  0x3e6899523ddc4c59U, 0x3e6609e13c169855U, 0x3e8aa7cebe450144U, 0xbe118bd8be35f61cU,
  0x3d83d8a33dd678e5U, 0x3d19e6843ed8fa0dU, 0x3eaa269d3e211821U, 0xbdf7d33b3dd56c65U,
  0xbe0a3b9dbd5265ccU, 0x3df865013f2489c2U, 0x3e131b46be66b1c8U, 0xbd0b62bbbdcebff3U,
  0x3d92813dbe5391d5U, 0x3dd218223d0b8f39U, 0x3cf16b073efd7d28U, 0xbe602394bfa00beaU,
  0xbe6cbe3ebdf02eacU, 0xbe03fcd43c839f27U, 0xbe21390cbea2b37eU, 0x3e66a5693e692ba0U,
  0x3e1b6a2e3e2700d0U, 0xbf693624be965031U, 0xbcf4ebd5bc4b1557U, 0xbe9040c33e761371U,
  0xbe4d03eb3e884b73U, 0xbeed58be3edf83eeU, 0xbe8b706ebfb6328aU, 0x3e68eaea3f96fb31U,
  0xbbcd34793f132eeeU, 0xbf0654c63d68c7fbU, 0x3e3eda83be0d79c5U, 0xbdabefc1be7b89b6U,
  0xbdf750d23dd6d185U, 0x3ed87bc1befa2ea5U, 0x3e4f750fbe4c39c4U, 0x3e4ce1d3bea64104U,
  0xbef22affbe2123aeU, 0x3d3e94893efd81dcU, 0x3e9e15abbe8f7d2eU, 0x3e5e3a5d3f4dd440U,
  0x3db5f0dd3e6bc4c1U, 0x3e5e4ebf3ef0da1eU, 0xbe81450b3e80f828U, 0x3da1d96c3e627831U,
  0xbe5bb63dbce628a0U, 0xbe9b98833dc8b337U, 0x3e813b423e9eaaa2U, 0x3dcf334cbf5e8791U,
  0x3e3cbf2f3e51d9a2U, 0x3dc632b4bc83e1adU, 0xbec0a642bf0b55cdU, 0x3e1cdc673cec6119U,
  0xc0533d13bda146f9U, 0xbff10fd5bf2b1cf9U, 0xbd9419bebe836253U, 0x3e65eaf7bec0a659U,
  0xba071e653d94f359U, 0xbed156383e628046U, 0xbe30e808bf66ba05U, 0x3e1946ee3fbb04d7U,
  0xbd4b71fa3f212162U, 0xbec70bc3be803700U, 0xbe415963be810ab4U, 0x3e7e0f183eb5c6f1U,
  0xbdd92de23e0f6137U, 0x3f36fa4ebe634bbaU, 0x3ed6623bbdd6da05U, 0x3e990d04be5077ecU,
  0xbe6ecdbd3df6febbU, 0xbdb3a33cbf228cc1U, 0x3f00a8873cbc8ec4U, 0x3e4c7f393f08ff82U,
  0xbdc6770dbe429056U, 0xbe4885a8c0018433U, 0xbd938458be5a7d4cU, 0xbe3f73f3be5314f5U,
  0x3d378002bb4e52f8U, 0xbe82ecafbe845c1fU, 0x3dfcd4e9bce91f1aU, 0x3e66e2a23f106190U,
  0xbc6cce273e638236U, 0x3e3b9f733e839045U, 0x3c8d7c173e09e109U, 0xbe840ade3dd12a64U,
  0xbb52ea383e5cb3c6U, 0x3f00e7663ebe19b7U, 0x3c79ae3b3e28275cU, 0xbd778d6d3e4295dfU,
  0xbe62a92bbd90eb3dU, 0x3dfd278cbebd905cU, 0x3d8c501e3f2ce2e0U, 0x3e8a1af3bf6b659eU,
  0x3ae5e276be9580c4U, 0x3d58fb9b3e366dfdU, 0x3e70142ebdb40eafU, 0xbe997c39be5d0472U,
  0x3e8099dd3e837b40U, 0xbd77d1333e2c9f55U, 0xbe614d71bdd1b5baU, 0x3e309fdf3e040a64U,
  0x3e817ca1be861725U, 0x3e4846383decf348U, 0xbeb767b73e02189fU, 0x3e780ed8bf1700fdU,
  0x3e191594bdd7e7dcU, 0xbe844db03d9ab368U, 0xbe1a78913df8b364U, 0x3d89ca19be2b246bU,
  0x3dffc5cd3d829ffeU, 0x3e0f50f33b559f41U, 0xbd4eaa56bed54eebU, 0x3ecc2d0a3efcf525U,
  0xbe1c232fbe1a6c99U, 0xbdde8df5bf0ce2ecU, 0x3e3d52a53d8a152eU, 0xbea788853dd6196eU,
  0xbf568077be8a4f2fU, 0x3f027914bd900092U, 0xbe167fc8be4a979cU, 0x3e7866adbde58dddU,
  0x3d7c4ac23e5915a7U, 0x3ed6c43fbef57848U, 0x3e0dbd573f8e087dU, 0x3e485755bf1d66bbU,
  0xbd595c14bebae8d0U, 0x3e81bd7fbe20631bU, 0xbc4131783df8a0ebU, 0xbeacee453e4d0059U,
  0x3df026c13e443e7aU, 0xbe6ddf723ebe8686U, 0xbe805afa3e228106U, 0x3dfb9555be335bd1U,
  0x3ef354033e660d18U, 0x3d097635be924f08U, 0x3d3245073eaf5705U, 0x3d92d5e1bf35abf7U,
  0x3e89c860be62603eU, 0xbe076d86bf216d76U, 0xbe153ec03b811641U, 0xbe7d06fd38ed5e0bU,
  0x4038ed293f803477U, 0xbfcf2f473fa9fefdU, 0x3d4ed9d7c04c5b9aU, 0x3a8b3f393c72094bU,
  0xbb19d56e3c9510d6U, 0x87565ecabba9829dU, 0x3ee7b65a87010e6dU, 0xbd9802823cda117aU,
  0x842ec1903acebd24U, 0xba1c6b4e87b5973aU, 0xbd259f4eba12f877U, 0x3a415910bc167930U,
  0xbcebb7753c936d64U, 0xbdd92eabbbe95a1bU, 0x3c9f17963c6bb108U, 0x78a7ec03ccf6764U,
  0xbd9bad7c87be49b4U, 0xbe0375bebc1ddd67U, 0x3d1aed3b3b0f7ce0U, 0x3e32a9603d2d26f4U,
  0x3d8166253d092bfcU, 0xbd33b9e5bd05491dU, 0x87bf667d3a6357a0U, 0x7bf7d9187bf922eU,
  0x71d9f3687bfac65U, 0xbc2b4f52874b2054U, 0xbcc7fee9bb084a34U, 0xb84b15853d496ad4U,
  0xbe784cc1b81fd124U, 0x3c9976a23e45bcf1U, 0x3b0a52883cad3d4fU, 0x8783c331bc1e6283U,
  0xbe13085387bf9a4eU, 0x3d2d59123d3f176eU, 0xba824b38bcb992a5U, 0xbcca6e2f3cb8a3aaU,
  0x3ce76bfe3cc2ac4aU, 0x7bf9f34bcdd0aabU, 0x87b75f7587bfa5cbU, 0x56f524787bf6c23U,
  0x870ce15906a414c4U, 0x8563c72487212f02U, 0x3cb261cb86b12b98U, 0xbc5f08a3bc70d168U,
  0x87bf58dfbb6016ceU, 0xbe021e9888b9c831U, 0x3db5bcbe3e07e168U, 0x8e4248683a6db582U,
  0xbab38ac2ab33190eU, 0x3b634e3bbb2e649aU, 0xacba946ebc8e1be2U, 0xa1c3ec9db784d8c7U,
  0x3e8b25e7b47f3e5eU, 0x8668c334bcd73050U, 0xbe19f8ce869b5554U, 0x3a746c8b3dfd3711U,
  0xbe01416dbc18c3f5U, 0xbadfd1623b03ec90U, 0xbd3f3a08baad275dU, 0xbd2c3e173ae39c61U,
  0xbd1adf6abbd182edU, 0x87bf722dbc18abc7U, 0x87bf744a87bf381aU, 0x87bcdfbe9bb027c9U,
  0x3c85c0ab87bf762fU, 0x3d1c8dc43ccf65d1U, 0xc040fb88baacb7c2U, 0x3ef58033c05ba3c3U,
  0xc0c1b19faa372fb8U, 0xbaabe496409298d0U, 0x4036100e3d7339a3U, 0x409d2e4fc0582647U,
  0xc095406340105386U, 0x412ccb20bcafddc5U, 0xc0fec6fd40ffc1e0U, 0xbd63499dc0dc7c67U,
  0xbe4d3cc8402c9f74U, 0xb14ebe07bdd91d9eU, 0xc0a6a7843f536c05U, 0xc0b2b13a3b9768bbU,
  0x3f0c3f6ec0800e01U, 0xbf522340bc3acea9U, 0xc0a3b4aa3fd6fdafU, 0x3e96d358bfbf5df3U,
  0xb932a88cbdabc9cdU, 0xbc672579a09df0a0U, 0x3fa21964b1b31a0aU, 0xbc4452443f7cb4d3U,
  0xc0a58452c0e61600U, 0x3e467e18bbba5d4aU, 0xbca5df703f709140U, 0xc0916866bb36434aU,
  0xc0a33dd99be6a516U, 0x40fde28d40227579U, 0x40382a883e00b17fU, 0x402f1aba4037e749U,
  0xbcf441c2bd15b68eU, 0xc09ca087bce1b5b9U, 0xbfd00465U, 0x0U,
  0x0U, 0x0U, 0x0U, 0x0U,
  0x0U, 0x0U, 0x0U, 0x0U,
  0x0U, 0x0U, 0x0U, 0x0U,
  0x0U, 0x0U, 0x0U, 0x0U,
  0x0U, 0x0U, 0x0U, 0x0U,
  0x0U, 0x0U, 0x0U, 0x0U,
  0x0U, 0x0U, 0x0U, 0x0U,
  0x0U, 0x0U, 0x0U, 0x0U,
  0x0U, 0x0U, 0x0U, 0x0U,
  0x0U, 0x0U, 0x0U, 0x0U,
  0x0U, 0x0U, 0x0U, 0x0U,
  0x0U, 0x0U, 0x0U, 0x0U,
  0x0U, 0x0U, 0x0U, 0x0U,
  0x0U, 0x0U, 0x0U, 0x0U,
  0x0U, 0x0U, 0x0U, 0x0U,
  0x0U, 0x0U, 0x3c56721100000000U, 0x3b7514a5U,
  0x3da0d58d00000000U, 0xbc567211U, 0x0U, 0xbbb7cf7c3bb7cf7cU,
  0x3bf514a5bc567211U, 0xbca87e3200000000U, 0x3c7514a5bcc720c6U, 0x3af514a53ce5c35bU,
  0xbc192ce7U, 0x0U, 0x0U, 0xbd192ce700000000U,
  0x3bf514a5U, 0xbc89db9d00000000U, 0x3bf514a5baf514a5U, 0xbb7514a5U,
  0x0U, 0x0U, 0x3af514a500000000U, 0x0U,
  0x3bf514a5bc192ce7U, 0x0U, 0x0U, 0x3d5e1ab600000000U,
  0xbcc720c600000000U, 0xbca87e3200000000U, 0xbbf514a500000000U, 0xbbb7cf7cU,
  0x0U, 0x3c192ce700000000U, 0x3bb7cf7c3bb7cf7cU, 0x3b7514a5U,
  0x3d37cf7c00000000U, 0xbc37cf7cU, 0x0U, 0xbc192ce73bb7cf7cU,
  0x3c192ce7bc7514a5U, 0xbce5c35b00000000U, 0x3c7514a5bc992ce7U, 0xbb7514a53ca87e32U,
  0xbbf514a5U, 0x0U, 0x3bf514a500000000U, 0xbb7514a500000000U,
  0x3bf514a5U, 0xbc89db9d00000000U, 0x3bb7cf7cbc192ce7U, 0x0U,
  0x0U, 0x0U, 0xbbf514a500000000U, 0x0U,
  0x3b7514a53bf514a5U, 0x0U, 0x0U, 0x3d20d58d00000000U,
  0xbb7514a500000000U, 0xbc7514a5bb7514a5U, 0xbc192ce700000000U, 0xbb7514a5U,
  0x0U, 0x3bf514a500000000U, 0xbc192ce73b7514a5U, 0xbb7514a5U,
  0xbd287e3200000000U, 0x3ca87e32U, 0x3bb7cf7c00000000U, 0x3c192ce7bbf514a5U,
  0xbc37cf7c3c192ce7U, 0x3d09db9d00000000U, 0xbc7514a53cc720c6U, 0xbaf514a5bc37cf7cU,
  0x3bf514a5U, 0x0U, 0xbc7514a53af514a5U, 0xbc192ce700000000U,
  0xbbf514a5U, 0x3bb7cf7c00000000U, 0xbbb7cf7c3c7514a5U, 0xbaf514a500000000U,
  0x0U, 0x0U, 0x0U, 0x3af514a5U,
  0xbc37cf7cbbb7cf7cU, 0x0U, 0xbaf514a5U, 0xbd3f782100000000U,
  0xbaf514a500000000U, 0x3ca87e323bb7cf7cU, 0x3c192ce700000000U, 0x3bb7cf7c3bb7cf7cU,
  0x0U, 0xbc192ce700000000U, 0xbbf514a5U, 0x0U,
  0x0U, 0x0U, 0x0U, 0x0U,
  0x0U, 0x0U, 0x0U, 0x0U,
  0x0U, 0x0U, 0x0U, 0x0U,
  0x0U, 0x0U, 0x0U, 0x0U,
  0x0U, 0x0U, 0x0U, 0x0U,
  0x0U, 0x0U, 0x0U, 0x0U,
  0x0U, 0x0U, 0x0U, 0x0U,
  0x0U, 0x0U, 0x3c56721100000000U, 0x3bb7cf7cU,
  0x3cf514a500000000U, 0x3af514a5U, 0xbc992ce700000000U, 0xbb7514a53c37cf7cU,
  0x3c89db9d00000000U, 0xbc192ce700000000U, 0x3ce5c35b3b7514a5U, 0x3cb7cf7cU,
  0x3af514a5U, 0x0U, 0x3d3026d7bb7514a5U, 0x3e2e3cae00000000U,
  0x3c567211U, 0x3ca87e3200000000U, 0x3bf514a500000000U, 0x3c89db9dU,
  0x0U, 0x0U, 0x0U, 0xbbb7cf7cU,
  0x3dcaf519U, 0x0U, 0x0U, 0xbd992ce700000000U,
  0x3dcaf51900000000U, 0x3b7514a5bbf514a5U, 0x3af514a500000000U, 0xbc89db9dbc567211U,
  0x0U, 0x3c89db9d00000000U, 0x3bb7cf7cbb7514a5U, 0x3af514a5U,
  0x3dac528400000000U, 0xbaf514a5U, 0xbb7514a500000000U, 0x3c37cf7c3bb7cf7cU,
  0x3bb7cf7c3bb7cf7cU, 0x3c37cf7c00000000U, 0x3bf514a500000000U, 0x3c37cf7c3ce5c35bU,
  0x0U, 0x0U, 0x3c89db9d00000000U, 0x3d287e3200000000U,
  0x3af514a53b7514a5U, 0x3c7514a500000000U, 0x3b7514a53c567211U, 0x3bb7cf7c3bb7cf7cU,
  0x0U, 0x0U, 0x3c192ce700000000U, 0xbaf514a5U,
  0x3bf514a53cd67211U, 0x0U, 0x3af514a5U, 0x3d56721100000000U,
  0x3ce5c35b00000000U, 0x3b7514a53bb7cf7cU, 0x3af514a500000000U, 0xbaf514a500000000U,
  0x0U, 0x3bb7cf7c00000000U, 0x3bb7cf7cU, 0x0U,
  0x0U, 0x0U, 0x0U, 0x0U,
  0x0U, 0x0U, 0x0U, 0x0U,
  0x0U, 0x0U, 0x0U, 0x0U,
  0x0U, 0x0U, 0x0U, 0x0U,
  0x0U, 0x0U, 0x0U, 0x0U,
  0x0U, 0x0U, 0x0U, 0x0U,
  0x0U, 0x0U, 0x0U, 0x0U,
  0x0U, 0x0U, 0xbaf514a500000000U, 0x0U,
  0x3c89db9d00000000U, 0xbbb7cf7cU, 0x0U, 0xbb7514a500000000U,
  0x3af514a5U, 0xbb7514a500000000U, 0xbc37cf7cU, 0x3c5672113c567211U,
  0xbaf514a5U, 0x0U, 0xbbb7cf7c00000000U, 0xbd287e3200000000U,
  0x3af514a500000000U, 0x3af514a500000000U, 0x3af514a53ca87e32U, 0x3bb7cf7cbb7514a5U,
  0x0U, 0x0U, 0x3c37cf7c00000000U, 0x0U,
  0x3bf514a5bc7514a5U, 0x0U, 0x3af514a5U, 0x3d11844200000000U,
  0xbca87e3200000000U, 0xbc192ce700000000U, 0x3b7514a500000000U, 0xbaf514a5U,
  0x0U, 0x0U, 0x3b7514a5U, 0x0U,
  0x0U, 0x0U, 0x0U, 0x0U,
  0x0U, 0x0U, 0x0U, 0x0U,
  0x0U, 0x0U, 0x0U, 0x0U,
  0x0U, 0x0U, 0x0U, 0x0U,
  0x0U, 0x0U, 0x0U, 0x0U,
  0x0U, 0x0U, 0x0U, 0x0U,
  0x0U, 0x0U, 0x0U, 0x0U,
  0x0U, 0x0U, 0x0U, 0x0U,
  0x0U, 0x0U, 0x0U, 0x0U,
  0x0U, 0x0U, 0x0U, 0x0U,
  0x0U, 0x0U, 0x0U, 0x0U,
  0x0U, 0x0U, 0x0U, 0x0U,
  0x0U, 0x0U, 0x0U, 0x0U,
  0x0U, 0x0U, 0x0U, 0x0U,
  0x0U, 0x0U, 0x0U, 0x0U,
  0x0U, 0x0U, 0x3bf514a500000000U, 0x3af514a5U,
  0x3d09db9d00000000U, 0x0U, 0xbb7514a500000000U, 0xbc37cf7c3bb7cf7cU,
  0x3c37cf7c3b7514a5U, 0xbc56721100000000U, 0x3c89db9dbaf514a5U, 0xbb7514a53c992ce7U,
  0x0U, 0x0U, 0x3cb7cf7c00000000U, 0x3da87e3200000000U,
  0x3bf514a5U, 0x3c37cf7c00000000U, 0x3b7514a5bbb7cf7cU, 0x3c192ce7U,
  0x0U, 0x0U, 0xbaf514a500000000U, 0xbaf514a5U,
  0x3bf514a53d4720c6U, 0x0U, 0x0U, 0xbaf514a500000000U,
  0x3d4720c600000000U, 0xbaf514a5bb7514a5U, 0x3af514a500000000U, 0xbb7514a5baf514a5U,
  0x0U, 0x3c192ce700000000U, 0x3bf514a53af514a5U, 0x3af514a5U,
  0x3d65c35b00000000U, 0x0U, 0x0U, 0x3bb7cf7cU,
  0x3c192ce73af514a5U, 0xbaf514a500000000U, 0x3c37cf7c3af514a5U, 0xbb7514a53cd67211U,
  0x0U, 0x0U, 0x3c992ce700000000U, 0x3d89db9d00000000U,
  0x3bb7cf7cU, 0x3bf514a500000000U, 0x3b7514a5baf514a5U, 0x3bf514a5U,
  0x0U, 0x0U, 0xbaf514a500000000U, 0x0U,
  0x3b7514a53d3026d7U, 0x0U, 0x0U, 0x3ce5c35b00000000U,
  0x3d20d58d00000000U, 0x3b7514a5baf514a5U, 0x0U, 0x0U,
  0x0U, 0x3bb7cf7c00000000U, 0x3b7514a5U, 0x0U,
  0x0U, 0x0U, 0x0U, 0x0U,
  0x0U, 0x0U, 0x0U, 0x0U,
  0x0U, 0x0U, 0x0U, 0x0U,
  0x0U, 0x0U, 0x0U, 0x0U,
  0x0U, 0x0U, 0x0U, 0x0U,
  0x0U, 0x0U, 0x0U, 0x0U,
  0x0U, 0x0U, 0x0U, 0x0U,
  0x0U, 0x0U, 0xbbb7cf7c00000000U, 0xbbb7cf7cU,
  0xbcd6721100000000U, 0x3b7514a5U, 0x3bb7cf7c00000000U, 0x3b7514a5bc192ce7U,
  0xbc37cf7c00000000U, 0x3c56721100000000U, 0xbc7514a53bb7cf7cU, 0xbc37cf7cU,
  0x3af514a5U, 0x0U, 0xbcb7cf7c00000000U, 0xbd89db9d00000000U,
  0xbbf514a5U, 0xbc56721100000000U, 0xbbf514a53af514a5U, 0xbaf514a5bbf514a5U,
  0x0U, 0x0U, 0x0U, 0x3af514a5U,
  0xbb7514a5bd192ce7U, 0x0U, 0x0U, 0x3af514a500000000U,
  0xbd20d58d00000000U, 0x3b7514a53af514a5U, 0x3af514a500000000U, 0x3b7514a53b7514a5U,
  0x0U, 0xbc192ce700000000U, 0xbb7514a5baf514a5U, 0x0U,
  0xbd56721100000000U, 0x3c567211U, 0x0U, 0x3c7514a5bb7514a5U,
  0x3c89db9dU, 0x3c992ce700000000U, 0x3ca87e32U, 0xbbb7cf7cbaf514a5U,
  0x3bf514a5U, 0x0U, 0x3bf514a500000000U, 0x3d89db9d00000000U,
  0x0U, 0x3c992ce700000000U, 0xbaf514a5bc567211U, 0xbb7514a53c192ce7U,
  0x0U, 0x0U, 0xbaf514a500000000U, 0x0U,
  0xbbb7cf7c3d37cf7cU, 0x0U, 0xbaf514a5U, 0xbd8daff000000000U,
  0x3d3f782100000000U, 0x3c89db9d3af514a5U, 0x3c192ce700000000U, 0x3b7514a5U,
  0x0U, 0xbaf514a500000000U, 0xbcc720c6bbb7cf7cU, 0xbaf514a53af514a5U,
  0xbe3f782100000000U, 0x3d4720c6U, 0x0U, 0x3cd672113af514a5U,
  0xbce5c35b3d192ce7U, 0x3dbf782100000000U, 0xbd37cf7c3da0d58dU, 0xbcf514a5bd5e1ab6U,
  0x3cf514a5U, 0x0U, 0xbcc720c600000000U, 0x3d3f782100000000U,
  0xbbb7cf7cbcb7cf7cU, 0x3d95589500000000U, 0x3b7514a53c192ce7U, 0xbcc720c6baf514a5U,
  0x0U, 0x0U, 0x3bf514a500000000U, 0x0U,
  0xbcd67211bc192ce7U, 0x0U, 0xbc192ce7U, 0xbe434c7400000000U,
  0x3c56721100000000U, 0x3d6d6c003c37cf7cU, 0x3d09db9d00000000U, 0x3c37cf7cU,
  0x0U, 0xbca87e3200000000U, 0xbaf514a5bc992ce7U, 0x3b7514a5U,
  0xbd192ce700000000U, 0x3bb7cf7cU, 0xbb7514a500000000U, 0x3bf514a53b7514a5U,
  0x3bf514a53c7514a5U, 0x3bb7cf7c00000000U, 0x3c192ce73c37cf7cU, 0x0U,
  0x3b7514a5U, 0x0U, 0x3cd6721100000000U, 0x3dde1ab600000000U,
  0x3bb7cf7cU, 0x3ce5c35b00000000U, 0x3b7514a5bc7514a5U, 0x3c567211U,
  0x0U, 0x0U, 0x0U, 0xbaf514a5U,
  0xbbf514a53d8232f8U, 0x0U, 0x0U, 0xbd9d013a00000000U,
  0x3d992ce700000000U, 0x3c192ce7bbb7cf7cU, 0x3c192ce700000000U, 0xbb7514a500000000U,
  0x0U, 0x3bb7cf7c00000000U, 0x3c992ce7bbf514a5U, 0x3c192ce7U,
  0x3db026d700000000U, 0xbc37cf7cU, 0xbc37cf7c00000000U, 0xbbb7cf7c3ca87e32U,
  0x3d0232f8baf514a5U, 0xbd4720c600000000U, 0x3d37cf7cbc992ce7U, 0xbc5672113d09db9dU,
  0xbbb7cf7cU, 0x0U, 0x3d89db9dbaf514a5U, 0x3e4cdf4200000000U,
  0x3cb7cf7cU, 0x3c992ce700000000U, 0x3c567211bbb7cf7cU, 0x3cb7cf7cU,
  0x0U, 0x0U, 0xbc37cf7c00000000U, 0xbb7514a5U,
  0x3c5672113de1ef08U, 0x0U, 0x0U, 0x3c192ce700000000U,
  0x3df1405300000000U, 0xbc7514a5bc37cf7cU, 0xbbf514a500000000U, 0xbc192ce7bc192ce7U,
  0x0U, 0x3cc720c600000000U, 0x3af514a53bb7cf7cU, 0x0U,
  0x3af514a500000000U, 0x3af514a5U, 0x0U, 0x0U,
  0x0U, 0x0U, 0x0U, 0xbbf514a5U,
  0x0U, 0x0U, 0x0U, 0x0U,
  0x0U, 0x0U, 0xbbb7cf7cU, 0x0U,
  0x0U, 0x0U, 0x0U, 0x0U,
  0xbb7514a5U, 0x0U, 0x0U, 0x0U,
  0x0U, 0x3af514a5U, 0x3af514a500000000U, 0x0U,
  0x0U, 0x0U, 0x0U, 0x0U,
  0x0U, 0x0U, 0x0U, 0x0U,
  0x0U, 0x0U, 0x0U, 0x0U,
  0x0U, 0x0U, 0x0U, 0x0U,
  0x0U, 0x0U, 0x0U, 0x0U,
  0x0U, 0x0U, 0x0U, 0x0U,
  0x0U, 0x0U, 0x0U, 0x0U,
  0x0U, 0x0U, 0x0U, 0x0U,
  0x0U, 0x0U, 0xbaf514a500000000U, 0xbaf514a5U,
  0xbcf514a500000000U, 0x3af514a5U, 0x3b7514a500000000U, 0xbaf514a5baf514a5U,
  0xbbb7cf7cbaf514a5U, 0x3bb7cf7c00000000U, 0xbbf514a53bf514a5U, 0xbc7514a5baf514a5U,
  0x3b7514a5U, 0x0U, 0xbc37cf7c00000000U, 0xbc89db9d00000000U,
  0xbaf514a5bbb7cf7cU, 0xbbb7cf7c00000000U, 0xbaf514a5bbb7cf7cU, 0xbbf514a5bb7514a5U,
  0x0U, 0x0U, 0xbc192ce700000000U, 0x3af514a5U,
  0xbbb7cf7cbbf514a5U, 0x0U, 0xbb7514a5U, 0xbcc720c600000000U,
  0xbc89db9d00000000U, 0x3bb7cf7c00000000U, 0x3c192ce700000000U, 0x3b7514a53af514a5U,
  0x0U, 0xbbb7cf7c00000000U, 0xbb7514a5U, 0x0U,
  0x0U, 0x0U, 0x0U, 0x0U,
  0x0U, 0x0U, 0x0U, 0x0U,
  0x0U, 0x0U, 0x0U, 0x0U,
  0x0U, 0x0U, 0x0U, 0x0U,
  0x0U, 0x0U, 0x0U, 0x0U,
  0x0U, 0x0U, 0x0U, 0x0U,
  0x0U, 0x0U, 0x0U, 0x0U,
  0x0U, 0x0U, 0xbb7514a500000000U, 0xbb7514a5U,
  0xbc7514a500000000U, 0x3bb7cf7cU, 0x3bb7cf7c00000000U, 0x3d0232f8bb7514a5U,
  0xbbb7cf7cbb7514a5U, 0x3ca87e3200000000U, 0xbbf514a53bf514a5U, 0xbb7514a53c192ce7U,
  0x3af514a5U, 0x0U, 0xbc56721100000000U, 0xbca87e3200000000U,
  0xbbb7cf7cU, 0xbc37cf7c00000000U, 0xbb7514a53c992ce7U, 0xbaf514a5bbf514a5U,
  0x0U, 0x0U, 0xbaf514a500000000U, 0x3af514a5U,
  0xbbb7cf7cbbb7cf7cU, 0x0U, 0xbaf514a5U, 0x0U,
  0xbc56721100000000U, 0x3b7514a53c567211U, 0x0U, 0x3b7514a53af514a5U,
  0x0U, 0xbbb7cf7c00000000U, 0xbaf514a5U, 0x0U,
  0x0U, 0x0U, 0x0U, 0x0U,
  0x0U, 0x0U, 0x0U, 0x0U,
  0x0U, 0x0U, 0x0U, 0x0U,
  0x0U, 0x0U, 0x0U, 0x0U,
  0x0U, 0x0U, 0x0U, 0x0U,
  0x0U, 0x0U, 0x0U, 0x0U,
  0x0U, 0x0U, 0x0U, 0x0U,
  0x0U, 0x0U, 0xbb7514a500000000U, 0xbbb7cf7cU,
  0xbc992ce700000000U, 0x3bf514a5U, 0x3bf514a500000000U, 0x3bb7cf7cbc192ce7U,
  0xbc5672113af514a5U, 0x3cb7cf7c00000000U, 0xbc89db9d3c37cf7cU, 0xbb7514a5bb7514a5U,
  0x3b7514a5U, 0x0U, 0xbcd672113af514a5U, 0xbd8232f800000000U,
  0xbc192ce7U, 0xbc7514a500000000U, 0xbbf514a5baf514a5U, 0xbb7514a5bbf514a5U,
  0x0U, 0x0U, 0x0U, 0x3af514a5U,
  0xbbb7cf7cbd09db9dU, 0x0U, 0xbaf514a5U, 0x0U,
  0xbd192ce700000000U, 0x3c192ce73b7514a5U, 0x3bb7cf7c00000000U, 0x3bf514a53bb7cf7cU,
  0x0U, 0xbc37cf7c00000000U, 0x3cb7cf7cbaf514a5U, 0x3bb7cf7cU,
  0x3d0232f800000000U, 0xbc992ce7U, 0xbb7514a500000000U, 0xbd0232f83c192ce7U,
  0x3c567211bbb7cf7cU, 0xbcf514a500000000U, 0x3c992ce7bc37cf7cU, 0xbaf514a53d567211U,
  0xbc567211U, 0x0U, 0x3cc720c600000000U, 0x3d7514a500000000U,
  0x3bf514a5U, 0x3bf514a500000000U, 0x3bf514a53bb7cf7cU, 0x3c567211U,
  0x0U, 0x0U, 0x0U, 0xbaf514a5U,
  0x3bf514a53d37cf7cU, 0x0U, 0x0U, 0x3cc720c600000000U,
  0x3d192ce700000000U, 0xbbb7cf7cbca87e32U, 0x3ca87e3200000000U, 0xbb7514a5bb7514a5U,
  0x0U, 0x3c192ce700000000U, 0x3cb7cf7c3b7514a5U, 0x3af514a53bf514a5U,
  0x3e732a7c00000000U, 0xbc7514a5U, 0xbca87e3200000000U, 0x3c192ce73cb7cf7cU,
  0x3cf514a53af514a5U, 0xbc37cf7c00000000U, 0x3d192ce7bca87e32U, 0x3c992ce73d9d013aU,
  0xbc192ce7U, 0x0U, 0x3d7cbd4bbb7514a5U, 0x3e0f9a1900000000U,
  0x3b7514a53ca87e32U, 0x3cf514a500000000U, 0x3c7514a53d0232f8U, 0x3c5672113c89db9dU,
  0x0U, 0x0U, 0x3ca87e3200000000U, 0xbbb7cf7cU,
  0x3cc720c63d992ce7U, 0x0U, 0x3bb7cf7cU, 0x3df8e8f800000000U,
  0x3dac528400000000U, 0xbc7514a53bb7cf7cU, 0xbc7514a500000000U, 0xbc7514a5bc192ce7U,
  0x0U, 0x3cb7cf7c00000000U, 0x3bf514a53c89db9dU, 0x3af514a5U,
  0x3d7cbd4b00000000U, 0xbaf514a5U, 0xbb7514a500000000U, 0x3b7514a5U,
  0x3bf514a53af514a5U, 0xbb7514a500000000U, 0x3c37cf7cbb7514a5U, 0x3af514a53ce5c35bU,
  0xbaf514a5U, 0x0U, 0x3c56721100000000U, 0x3d11844200000000U,
  0x3bb7cf7cU, 0x3bb7cf7c00000000U, 0x3b7514a53b7514a5U, 0x3af514a53b7514a5U,
  0x0U, 0x0U, 0x3b7514a500000000U, 0xbaf514a5U,
  0x3c192ce73cc720c6U, 0x0U, 0x3af514a5U, 0x3cf514a500000000U,
  0x3cb7cf7c00000000U, 0xbb7514a500000000U, 0xbaf514a500000000U, 0xbb7514a5baf514a5U,
  0x0U, 0x3bb7cf7c00000000U, 0xbc89db9d3bb7cf7cU, 0xbc192ce7U,
  0xbcd6721100000000U, 0x3cc720c6U, 0x3c89db9d00000000U, 0x3cc720c6bcc720c6U,
  0xbcf514a53c992ce7U, 0x3d95589500000000U, 0xbd3026d73d192ce7U, 0x3c89db9dbcc720c6U,
  0x3c567211U, 0x0U, 0xbd7514a53b7514a5U, 0xbe0f9a1900000000U,
  0xbca87e32U, 0xbb7514a500000000U, 0xbc992ce73cb7cf7cU, 0x3b7514a5bc7514a5U,
  0x0U, 0x0U, 0x3c56721100000000U, 0x3b7514a5U,
  0x3af514a5bd8daff0U, 0x0U, 0x3af514a5U, 0x3d89db9d00000000U,
  0xbd9d013a00000000U, 0x3d09db9d3c567211U, 0x3c56721100000000U, 0x3c5672113c992ce7U,
  0x0U, 0xbcc720c600000000U, 0x3b7514a5U, 0x0U,
  0x0U, 0x0U, 0x0U, 0x0U,
  0x0U, 0x0U, 0x0U, 0x0U,
  0x0U, 0x0U, 0x0U, 0x0U,
  0x0U, 0x0U, 0x0U, 0x0U,
  0x0U, 0x0U, 0x0U, 0x0U,
  0x0U, 0x0U, 0x0U, 0x0U,
  0x0U, 0x0U, 0x0U, 0x0U,
  0x0U, 0x0U, 0xbbf514a500000000U, 0xbbb7cf7cU,
  0xbc7514a500000000U, 0x3bb7cf7cU, 0x3bf514a500000000U, 0x3bf514a5bc37cf7cU,
  0xbc7514a53af514a5U, 0x3cc720c600000000U, 0xbcb7cf7c3bf514a5U, 0x3bb7cf7cbc37cf7cU,
  0x3b7514a5U, 0x0U, 0xbd09db9d3af514a5U, 0xbdde1ab600000000U,
  0xbc37cf7cU, 0xbc7514a500000000U, 0xbc192ce73bf514a5U, 0xbc37cf7cU,
  0x0U, 0x0U, 0x3bb7cf7c00000000U, 0x3af514a5U,
  0xbaf514a5bd6d6c00U, 0x0U, 0x0U, 0x3cb7cf7c00000000U,
  0xbd7cbd4b00000000U, 0x3bf514a53bb7cf7cU, 0x3b7514a500000000U, 0x3bb7cf7c3bf514a5U,
  0x0U, 0xbc56721100000000U, 0x0U, 0x0U,
  0x0U, 0x0U, 0x0U, 0x0U,
  0x0U, 0x0U, 0x0U, 0x3af514a5U,
  0x0U, 0x0U, 0x0U, 0x0U,
  0x0U, 0x0U, 0x3af514a5U, 0x0U,
  0x0U, 0x0U, 0x0U, 0x0U,
  0x0U, 0x0U, 0x0U, 0x0U,
  0x0U, 0x0U, 0x0U, 0x0U,
  0x0U, 0x0U, 0xbbb7cf7c00000000U, 0x0U,
  0xbd6d6c0000000000U, 0x3bf514a5U, 0x0U, 0x0U,
  0x3c37cf7cU, 0x3bf514a500000000U, 0xbaf514a53c567211U, 0xbc89db9dU,
  0x3b7514a5U, 0x0U, 0x3bf514a500000000U, 0x3d4720c600000000U,
  0x0U, 0x3c89db9d00000000U, 0xbaf514a5baf514a5U, 0x3bb7cf7cU,
  0x0U, 0x0U, 0x0U, 0x0U,
  0xbbb7cf7c3cd67211U, 0x0U, 0x0U, 0xbd56721100000000U,
  0x3d0232f800000000U, 0x3c192ce7baf514a5U, 0x3bf514a500000000U, 0x3af514a5U,
  0x0U, 0xbaf514a500000000U, 0x3c192ce7bbb7cf7cU, 0x3b7514a5U,
  0x3dc720c600000000U, 0xbb7514a5U, 0xbbb7cf7c00000000U, 0x3c192ce73bf514a5U,
  0x3c192ce700000000U, 0x0U, 0x3c567211bb7514a5U, 0x3bb7cf7c3ce5c35bU,
  0xbb7514a5U, 0x0U, 0x3cb7cf7c00000000U, 0x3d56721100000000U,
  0x3af514a53bf514a5U, 0x3c37cf7c00000000U, 0x3bb7cf7c3bf514a5U, 0x3b7514a53bf514a5U,
  0x0U, 0x0U, 0x3bf514a500000000U, 0xbaf514a5U,
  0x3bf514a53cf514a5U, 0x0U, 0x3af514a5U, 0x3d4ec96c00000000U,
  0x3d09db9d00000000U, 0xbb7514a500000000U, 0xbb7514a500000000U, 0xbb7514a5baf514a5U,
  0x0U, 0x3bf514a500000000U, 0x3bb7cf7cU, 0x0U,
  0x0U, 0x0U, 0x0U, 0x0U,
  0x0U, 0x0U, 0x0U, 0x0U,
  0x0U, 0x0U, 0x0U, 0x0U,
  0x0U, 0x0U, 0x0U, 0x0U,
  0x0U, 0x0U, 0x0U, 0x0U,
  0x0U, 0x0U, 0x0U, 0x0U,
  0x0U, 0x0U, 0x0U, 0x0U,
  0x0U, 0x0U, 0x3b7514a500000000U, 0x0U,
  0xbc37cf7c00000000U, 0x3bf514a5U, 0x0U, 0xbc192ce700000000U,
  0x3b7514a53c192ce7U, 0x3bf514a500000000U, 0x3bb7cf7c3c567211U, 0xbc192ce73c7514a5U,
  0x3bb7cf7cU, 0x0U, 0x3c192ce700000000U, 0x3d89db9d00000000U,
  0xbaf514a53af514a5U, 0x3c192ce700000000U, 0xbbb7cf7cU, 0xbb7514a53bf514a5U,
  0x0U, 0x0U, 0xbbb7cf7c00000000U, 0x0U,
  0xbaf514a53d3026d7U, 0x0U, 0xbaf514a5U, 0xbd192ce700000000U,
  0x3d20d58d00000000U, 0x3c192ce700000000U, 0x3bb7cf7c00000000U, 0x3af514a5U,
  0x0U, 0x3af514a500000000U, 0x3c192ce7bb7514a5U, 0x3bb7cf7cU,
  0x3dbf782100000000U, 0xbca87e32U, 0x0U, 0xbc37cf7c3bf514a5U,
  0x3c37cf7cbb7514a5U, 0xbd09db9d00000000U, 0x3c992ce7bd0232f8U, 0x3c89db9d3d0232f8U,
  0xbc567211U, 0x0U, 0x3bf514a500000000U, 0xbd56721100000000U,
  0x3af514a53c37cf7cU, 0xbaf514a500000000U, 0x3c192ce73c89db9dU, 0x3c192ce7baf514a5U,
  0x0U, 0x0U, 0x3c192ce700000000U, 0x0U,
  0x3ca87e32bc89db9dU, 0x0U, 0x3b7514a5U, 0x3da4a9df00000000U,
  0xbcb7cf7c00000000U, 0xbce5c35b00000000U, 0xbc7514a500000000U, 0x0U,
  0x0U, 0x3c56721100000000U, 0xbaf514a53c37cf7cU, 0x0U,
  0xbc192ce700000000U, 0x0U, 0xbbb7cf7c00000000U, 0xbaf514a5U,
  0xbaf514a53af514a5U, 0x0U, 0xbaf514a53af514a5U, 0xbb7514a5U,
  0x0U, 0x0U, 0x0U, 0xbaf514a500000000U,
  0x0U, 0x3b7514a500000000U, 0x3af514a500000000U, 0x0U,
  0x0U, 0x0U, 0x0U, 0xbbf514a5U,
  0xbaf514a5U, 0x0U, 0x0U, 0xbaf514a500000000U,
  0xbaf514a500000000U, 0x3af514a500000000U, 0x0U, 0xbc5672113af514a5U,
  0x0U, 0x0U, 0x0U, 0x0U,
  0x0U, 0x0U, 0x0U, 0x0U,
  0x0U, 0x0U, 0x0U, 0x0U,
  0x0U, 0x0U, 0x0U, 0x0U,
  0x0U, 0x0U, 0x0U, 0x0U,
  0x0U, 0x0U, 0x0U, 0x0U,
  0x0U, 0x0U, 0x0U, 0x0U,
  0x0U, 0x0U, 0x0U, 0x0U,
  0x0U, 0x0U, 0x0U, 0x0U,
  0x0U, 0x0U, 0x0U, 0x0U,
  0x0U, 0x0U, 0x0U, 0x0U,
  0x0U, 0x0U, 0x0U, 0x0U,
  0x0U, 0x0U, 0x0U, 0x0U,
  0x0U, 0x0U, 0x0U, 0x0U,
  0x0U, 0x0U, 0x0U, 0x0U,
  0x0U, 0x0U, 0x0U, 0x0U,
  0x0U, 0x0U, 0x3c192ce700000000U, 0x3b7514a5U,
  0x3db7cf7c00000000U, 0xbb7514a5U, 0xbbb7cf7c00000000U, 0x3bf514a53bf514a5U,
  0x3c192ce73af514a5U, 0x3b7514a500000000U, 0x3c37cf7cbb7514a5U, 0x3c192ce73d09db9dU,
  0xbaf514a5U, 0x0U, 0x3cb7cf7c00000000U, 0x3d4720c600000000U,
  0x3af514a53bb7cf7cU, 0x3c56721100000000U, 0x3bb7cf7c3c37cf7cU, 0x3bb7cf7c3bb7cf7cU,
  0x0U, 0x0U, 0x3c192ce700000000U, 0xbaf514a5U,
  0x3c192ce73cf514a5U, 0x0U, 0x3af514a5U, 0x3d5e1ab600000000U,
  0x3d0232f800000000U, 0xbaf514a53bf514a5U, 0xbbb7cf7c00000000U, 0xbb7514a5baf514a5U,
  0x0U, 0x3bf514a500000000U, 0xbbb7cf7c3bf514a5U, 0xbaf514a5U,
  0xbb7514a500000000U, 0x3b7514a5U, 0x3b7514a500000000U, 0x3c192ce7bbf514a5U,
  0xbc37cf7c3b7514a5U, 0x3ca87e3200000000U, 0xbc5672113bb7cf7cU, 0x3c567211bbf514a5U,
  0x3af514a5U, 0x0U, 0xbca87e3200000000U, 0xbd89db9d00000000U,
  0x3af514a5bbf514a5U, 0xbb7514a500000000U, 0xbbb7cf7c3c7514a5U, 0x3b7514a5bbb7cf7cU,
  0x0U, 0x0U, 0x3c192ce700000000U, 0x3af514a5U,
  0xbaf514a5bd0232f8U, 0x0U, 0x3af514a5U, 0x3c37cf7c00000000U,
  0xbd09db9d00000000U, 0x3b7514a53bb7cf7cU, 0x3b7514a500000000U, 0x3b7514a53b7514a5U,
  0x0U, 0xbbf514a500000000U, 0x0U, 0x0U,
  0x0U, 0x0U, 0x0U, 0x0U,
  0x0U, 0x0U, 0x0U, 0x0U,
  0x0U, 0x0U, 0x0U, 0x0U,
  0x0U, 0x0U, 0x0U, 0x0U,
  0x0U, 0x0U, 0x0U, 0x0U,
  0x0U, 0x0U, 0x0U, 0x0U,
  0x0U, 0x0U, 0x0U, 0x0U,
  0x0U, 0x0U, 0x3af514a500000000U, 0xbb7514a5U,
  0x3cc720c600000000U, 0x3bb7cf7cU, 0x3af514a500000000U, 0x3c192ce7bbf514a5U,
  0xbbf514a53bb7cf7cU, 0x3c992ce700000000U, 0xbbf514a53b7514a5U, 0x3bf514a53ce5c35bU,
  0x3b7514a5U, 0x0U, 0xbc992ce700000000U, 0xbd65c35b00000000U,
  0xbb7514a5U, 0xbb7514a500000000U, 0xbbb7cf7c3d0232f8U, 0x3b7514a5bb7514a5U,
  0x0U, 0x0U, 0x3c192ce700000000U, 0x0U,
  0x3c192ce7bcd67211U, 0x0U, 0x3af514a5U, 0x3d09db9d00000000U,
  0xbd09db9d00000000U, 0x3b7514a53bf514a5U, 0x3bb7cf7c00000000U, 0x3af514a53b7514a5U,
  0x0U, 0xbbb7cf7c00000000U, 0xbaf514a53b7514a5U, 0x3af514a5U,
  0xbd37cf7c00000000U, 0x3bf514a5U, 0xbb7514a500000000U, 0x3bb7cf7c3af514a5U,
  0x3b7514a53c37cf7cU, 0x3bf514a500000000U, 0x3bb7cf7c3c567211U, 0xbbf514a5U,
  0x3bb7cf7cU, 0x0U, 0x3c89db9d00000000U, 0x3da87e3200000000U,
  0x3af514a5U, 0x3ca87e3200000000U, 0x3af514a500000000U, 0x3c37cf7cU,
  0x0U, 0x0U, 0x0U, 0xbaf514a5U,
  0xbbf514a53d3f7821U, 0x0U, 0x0U, 0xbd7514a500000000U,
  0x3d5e1ab600000000U, 0x3c192ce7baf514a5U, 0x3c192ce700000000U, 0xbaf514a500000000U,
  0x0U, 0x3af514a500000000U, 0xbbb7cf7cU, 0x0U,
  0x0U, 0x0U, 0x0U, 0x0U,
  0x0U, 0x0U, 0x0U, 0x0U,
  0x0U, 0x0U, 0x0U, 0x0U,
  0x0U, 0x0U, 0x0U, 0x0U,
  0x0U, 0x0U, 0x0U, 0x0U,
  0x0U, 0x0U, 0x0U, 0x0U,
  0x0U, 0x0U, 0x0U, 0x0U,
  0x0U, 0x0U, 0x0U, 0x0U,
  0x0U, 0x0U, 0x0U, 0x0U,
  0x0U, 0x0U, 0x0U, 0x0U,
  0x0U, 0x0U, 0x0U, 0x0U,
  0x0U, 0x0U, 0x0U, 0x0U,
  0x0U, 0x0U, 0x0U, 0x0U,
  0x0U, 0x0U, 0x0U, 0x0U,
  0x0U, 0x0U, 0x0U, 0x0U,
  0x0U, 0x0U, 0x3c37cf7c00000000U, 0x3b7514a5U,
  0x3de5c35b00000000U, 0xbbb7cf7cU, 0xbbb7cf7c00000000U, 0x3af514a53c192ce7U,
  0x3c37cf7c3af514a5U, 0x3af514a500000000U, 0x3c7514a5bbb7cf7cU, 0x3c192ce73d118442U,
  0xbaf514a5U, 0x0U, 0x3cd6721100000000U, 0x3d7514a500000000U,
  0x3af514a53bf514a5U, 0x3c7514a500000000U, 0x3bf514a53c89db9dU, 0x3bb7cf7c3bf514a5U,
  0x0U, 0x0U, 0x3c192ce700000000U, 0xbaf514a5U,
  0x3c192ce73d20d58dU, 0x0U, 0x3af514a5U, 0x3d7514a500000000U,
  0x3d20d58d00000000U, 0xbb7514a53bf514a5U, 0xbaf514a500000000U, 0xbb7514a5baf514a5U,
  0x0U, 0x3c192ce700000000U, 0xbc7514a53bf514a5U, 0xbaf514a500000000U,
  0xbe1742be00000000U, 0x3ca87e32U, 0x3b7514a500000000U, 0x3bb7cf7c00000000U,
  0xbc192ce73c7514a5U, 0x3cd6721100000000U, 0xbc992ce73d09db9dU, 0xbc89db9dbd3f7821U,
  0x3c567211U, 0x0U, 0xbbf514a500000000U, 0x3ce5c35b00000000U,
  0xbaf514a5bbf514a5U, 0x3cd6721100000000U, 0x3af514a5bbf514a5U, 0xbc37cf7c00000000U,
  0x0U, 0x0U, 0xbb7514a500000000U, 0x3af514a5U,
  0xbc5672113af514a5U, 0x0U, 0xbbb7cf7cU, 0xbdcec96c00000000U,
  0x3c56721100000000U, 0x3cc720c63af514a5U, 0x3c7514a500000000U, 0x3b7514a53bb7cf7cU,
  0x0U, 0xbbf514a500000000U, 0xbc192ce7U, 0x0U,
  0x0U, 0x0U, 0x0U, 0x0U,
  0x0U, 0x0U, 0x0U, 0x0U,
  0x0U, 0x0U, 0x0U, 0x0U,
  0x0U, 0x0U, 0x0U, 0x0U,
  0x0U, 0x0U, 0x0U, 0x0U,
  0x0U, 0x0U, 0x0U, 0x0U,
  0x0U, 0x0U, 0x0U, 0x0U,
  0x0U, 0x0U, 0x3c192ce700000000U, 0x3af514a5U,
  0x3dbf782100000000U, 0xbaf514a5U, 0xbb7514a500000000U, 0x3bb7cf7c3bb7cf7cU,
  0x3bf514a53bb7cf7cU, 0x3bb7cf7c00000000U, 0x3c37cf7cbaf514a5U, 0x3c192ce73cb7cf7cU,
  0xbaf514a5U, 0x0U, 0x3c89db9d00000000U, 0x3d37cf7c00000000U,
  0x3af514a53bb7cf7cU, 0x3c56721100000000U, 0x3b7514a53c7514a5U, 0x3bb7cf7c3bf514a5U,
  0x0U, 0x0U, 0x3bf514a500000000U, 0xbaf514a5U,
  0x3c37cf7c3d09db9dU, 0x0U, 0x3af514a5U, 0x3d6d6c0000000000U,
  0x3d0232f800000000U, 0x3af514a53bb7cf7cU, 0xbbb7cf7c00000000U, 0xbaf514a500000000U,
  0x0U, 0x3bf514a500000000U, 0x3bf514a53bf514a5U, 0x0U,
  0x3db7cf7c00000000U, 0xbaf514a5U, 0x3af514a500000000U, 0x3cb7cf7cbb7514a5U,
  0xbb7514a500000000U, 0x3c56721100000000U, 0xbaf514a5baf514a5U, 0x3bf514a53cd67211U,
  0x0U, 0x0U, 0xbc7514a53af514a5U, 0xbd4ec96c00000000U,
  0xbaf514a5U, 0xbc37cf7c00000000U, 0xbaf514a53c192ce7U, 0x3af514a5bbb7cf7cU,
  0x0U, 0x0U, 0x3bb7cf7c00000000U, 0x0U,
  0x3c567211bcf514a5U, 0x0U, 0x3af514a5U, 0x3dc34c7400000000U,
  0xbcd6721100000000U, 0x3b7514a5baf514a5U, 0x3c192ce700000000U, 0x3af514a53b7514a5U,
  0x0U, 0xbaf514a500000000U, 0xbb7514a53c192ce7U, 0xbbb7cf7cU,
  0xbbb7cf7c00000000U, 0x3c37cf7cU, 0x3c56721100000000U, 0x3c7514a5bc7514a5U,
  0xbc89db9d3af514a5U, 0x3d20d58d00000000U, 0xbcb7cf7c3c89db9dU, 0xbaf514a500000000U,
  0x3bb7cf7cU, 0x0U, 0xbd287e323af514a5U, 0xbdc720c600000000U,
  0xbc37cf7cU, 0xbca87e3200000000U, 0xbc192ce73af514a5U, 0xbb7514a5bc37cf7cU,
  0x0U, 0x0U, 0x0U, 0x3b7514a5U,
  0xbbb7cf7cbd3f7821U, 0x0U, 0xbaf514a5U, 0x3c89db9d00000000U,
  0xbd65c35b00000000U, 0x3c5672113bb7cf7cU, 0x3c192ce700000000U, 0x3c192ce73c192ce7U,
  0x0U, 0xbc7514a500000000U, 0xbaf514a5U, 0x0U,
  0x0U, 0x0U, 0x0U, 0x0U,
  0x0U, 0x0U, 0x0U, 0x0U,
  0x0U, 0x0U, 0x0U, 0x0U,
  0x0U, 0x0U, 0x0U, 0x0U,
  0x0U, 0x0U, 0x0U, 0x0U,
  0x0U, 0x0U, 0x0U, 0x0U,
  0x0U, 0x0U, 0x0U, 0x0U,
  0x0U, 0x0U, 0x0U, 0x0U,
  0x0U, 0x0U, 0x0U, 0x0U,
  0x0U, 0x0U, 0x0U, 0x0U,
  0x0U, 0x0U, 0x0U, 0x0U,
  0x0U, 0x0U, 0x0U, 0x0U,
  0x0U, 0x0U, 0x0U, 0x0U,
  0x0U, 0x0U, 0x0U, 0x0U,
  0x0U, 0x0U, 0x0U, 0x0U,
  0x0U, 0x0U, 0xbaf514a500000000U, 0x0U,
  0xbbb7cf7c00000000U, 0x3af514a5U, 0x0U, 0x3b7514a500000000U,
  0x0U, 0x3af514a500000000U, 0x0U, 0xbc567211U,
  0x0U, 0x0U, 0x0U, 0xbaf514a500000000U,
  0x0U, 0x0U, 0xbb7514a5U, 0x0U,
  0x0U, 0x0U, 0x0U, 0x0U,
  0x3af514a5U, 0x0U, 0x0U, 0x0U,
  0x0U, 0x3af514a5bb7514a5U, 0xbaf514a500000000U, 0x0U,
  0x0U, 0x0U, 0xbcb7cf7c00000000U, 0xbaf514a53af514a5U,
  0xbe3ba3cf00000000U, 0x3d20d58dU, 0x3b7514a500000000U, 0x3c992ce73af514a5U,
  0xbca87e323d0232f8U, 0x3d8daff000000000U, 0xbd1184423d8232f8U, 0xbcc720c6bd65c35bU,
  0x3cc720c6U, 0x0U, 0xbc89db9d3af514a5U, 0x3d192ce700000000U,
  0xbbb7cf7cbc89db9dU, 0x3d7514a500000000U, 0x3bb7cf7c3bb7cf7cU, 0xbcb7cf7c00000000U,
  0x0U, 0x0U, 0x3bb7cf7c00000000U, 0x3af514a5U,
  0xbca87e32bbb7cf7cU, 0x0U, 0xbc192ce7U, 0xbe1b171100000000U,
  0x3c56721100000000U, 0x3d3f78213c192ce7U, 0x3ce5c35b00000000U, 0x3af514a53c192ce7U,
  0x0U, 0xbc7514a500000000U, 0xbc7514a5U, 0x0U,
  0x0U, 0x0U, 0x0U, 0x0U,
  0x0U, 0x0U, 0x0U, 0x0U,
  0x0U, 0x0U, 0x0U, 0x0U,
  0x0U, 0x0U, 0x0U, 0x0U,
  0x0U, 0x0U, 0x0U, 0x0U,
  0x0U, 0x0U, 0x0U, 0x0U,
  0x0U, 0x0U, 0x0U, 0x0U,
  0x0U, 0x0U, 0x0U, 0x0U,
  0x0U, 0x0U, 0x0U, 0x0U,
  0x0U, 0x0U, 0x0U, 0x0U,
  0x0U, 0x0U, 0x0U, 0x0U,
  0x0U, 0x0U, 0x0U, 0x0U,
  0x0U, 0x0U, 0x0U, 0x0U,
  0x0U, 0x0U, 0x0U, 0x0U,
  0x0U, 0x0U, 0x0U, 0x0U,
  0x0U, 0x0U, 0x0U, 0x0U,
  0x0U, 0x0U, 0x0U, 0x0U,
  0x0U, 0x0U, 0x0U, 0x0U,
  0x0U, 0x0U, 0x0U, 0x0U,
  0x0U, 0x0U, 0x0U, 0x0U,
  0x0U, 0x0U, 0x0U, 0x0U,
  0x0U, 0x0U, 0x0U, 0x0U,
  0x0U, 0x0U, 0x0U, 0x0U,
  0x0U, 0x0U, 0x0U, 0x0U,
  0x0U, 0x0U, 0x0U, 0x0U,
  0x0U, 0x0U, 0x0U, 0x0U,
  0x0U, 0x0U, 0x0U, 0x0U,
  0x0U, 0x0U, 0x0U, 0x0U,
  0x0U, 0x0U, 0x0U, 0x0U,
  0x0U, 0x0U, 0x0U, 0x0U,
  0x0U, 0x0U, 0x0U, 0x0U,
  0x0U, 0x0U, 0x0U, 0x0U,
  0x0U, 0x0U, 0x0U, 0x0U,
  0x0U, 0x0U, 0x0U, 0x0U,
  0x0U, 0x0U, 0x0U, 0x0U,
  0x0U, 0x0U, 0x0U, 0x0U,
  0x0U, 0x0U, 0x0U, 0x0U,
  0x0U, 0x0U, 0x0U, 0x0U,
  0x0U, 0x0U, 0x0U, 0x0U,
  0x0U, 0x0U, 0x0U,
};


ai_handle g_network_weights_table[1 + 2] = {
  AI_HANDLE_PTR(AI_MAGIC_MARKER),
  AI_HANDLE_PTR(s_network_weights_array_u64),
  AI_HANDLE_PTR(AI_MAGIC_MARKER),
};

